1C9
1F0
020
1D9
1CA
020
1F8
004
1F8
059
084
1F3
051
1F6
1D4
1E8
1B4
01E
1D2
010
1FB
011
1F1
005
00D
1EF
03C
00E
1CE
006
002
020
009
1C9
042
1F2
002
00B
006
1E8
1FF
1E4
1FA
1F4
1E6
1F9
009
026
016
012
1C3
1FA
1F2
1FE
00A
1F7
1CC
1CC
1E7
024
000
1EF
1A0
1F9
00C
028
1E2
1F0
032
04C
011
03F
1AE
1D8
03A
026
1FC
1E9
1D2
1EB
1F9
038
01E
00C
015
029
039
195
009
1D5
1FC
1E2
001
038
1C5
1D6
1EB
1D6
00D
006
02B
1C8
00A
038
00D
01B
1F2
1FC
01A
1BA
065
171
040
1BC
1FC
1F2
010
1F8
1D9
1FD
1E7
1BF
003
026
040
1A3
015
052
01A
008
1CE
1FB
019
197
027
011
04E
1D2
058
00F
1F4
01A
1F6
1FA
01E
1F9
1EC
016
02D
1ED
039
099
004
01D
0D5
05B
028
036
1EA
1FD
1F0
193
1B4
02F
01E
014
01C
042
1F8
04E
1B1
1ED
013
1E1
0C3
1C7
0F4
044
02A
07C
07F
1EB
029
1F2
1FB
17B
069
1F0
020
1CB
1E9
1D9
026
1D8
00F
1E8
1EE
1FF
01D
010
050
1E6
041
1EE
00E
007
037
008
008
1FD
00C
003
040
1B4
01E
1E7
1DC
008
001
019
1B3
18A
1F5
187
1F4
1FC
1F9
023
010
020
00F
1FA
1AF
05E
1D3
062
1FC
1F8
004
00D
028
037
007
1B9
056
048
05C
013
007
003
1EF
1EB
