01E
000
05E
049
1B9
082
04F
1DE
1B7
016
000
1E5
01C
000
1D3
043
1C6
1E1
1AD
029
1C2
1C4
016
029
0A4
000
032
015
1F0
196
000
1E0
00C
000
02A
1F1
064
1F5
1C8
192
03F
089
16A
00D
000
1D8
027
01A
033
078
000
042
02D
000
000
1B8
1D3
03D
020
019
000
036
01A
000
1F0
1E9
1E8
1E9
000
02E
000
1DF
1C1
000
000
1EB
000
02B
007
023
000
04F
00C
03E
1F7
000
1ED
000
1EC
012
02A
037
014
02C
040
000
00E
012
000
01C
00D
000
02A
1F3
000
000
000
011
01B
1F2
012
03D
023
034
013
015
1DF
000
000
1E3
1E8
031
027
02B
1F4
000
01B
028
000
1DD
010
18A
1B2
000
1C2
033
000
057
000
000
1FA
1C0
1DF
053
038
024
024
02B
01B
1F1
000
008
1CE
1AB
000
1D7
00B
013
02B
1EA
033
000
022
1ED
04E
162
02E
018
073
000
1BE
07C
01C
000
089
03E
00D
07D
016
1DD
18A
000
000
000
043
015
1AB
026
1B6
1D7
18D
01B
1CA
1C4
023
03B
0C8
000
029
019
000
1A9
000
1D9
1EF
000
018
1E5
081
1F3
1A1
173
01C
0A0
152
000
000
000
011
01B
1DD
1DF
000
1E7
1EE
013
000
000
000
1DD
1E3
1DB
1DD
1EA
020
1ED
1D4
1C2
016
000
1F4
000
1F3
1EB
019
01D
1B1
1D0
1D0
010
1CE
000
012
000
018
02C
000
1EF
00D
021
1F4
02C
017
000
000
000
000
000
000
012
1CC
000
034
000
000
1F1
00B
01F
000
020
019
000
021
038
000
024
000
017
1E0
01F
025
1D8
000
02C
1E6
000
000
01F
000
019
00C
